<unk>	0
<pad>	0
▁k	-0
▁b	-1
▁n	-2
an	-3
▁y	-4
▁d	-5
▁ka	-6
▁s	-7
▁[	-8
▁m	-9
▁f	-10
la	-11
▁t	-12
in	-13
▁ye	-14
▁bɛ	-15
▁a	-16
▁la	-17
ɔn	-18
?]	-19
▁o	-20
ra	-21
▁[?]	-22
ɛn	-23
ɔr	-24
▁kɛ	-25
aa	-26
cs	-27
▁na	-28
un	-29
ɔrɔ	-30
en	-31
▁an	-32
▁i	-33
ɔg	-34
li	-35
▁ko	-36
um	-37
▁j	-38
▁ni	-39
ɛr	-40
ana	-41
▁ɲ	-42
▁ma	-43
▁min	-44
▁c	-45
▁w	-46
ɛrɛ	-47
▁se	-48
ya	-49
ɔgɔ	-50
▁de	-51
▁fɔ	-52
▁dɔ	-53
on	-54
▁yɛrɛ	-55
▁kɔn	-56
am	-57
▁bi	-58
is	-59
▁u	-60
▁sɔrɔ	-61
lo	-62
▁be	-63
len	-64
▁ne	-65
aara	-66
▁tɛ	-67
ri	-68
▁fɛn	-69
ig	-70
go	-71
lu	-72
ba	-73
nu	-74
▁nin	-75
▁don	-76
▁kan	-77
▁baara	-78
le	-79
ga	-80
▁wa	-81
▁taa	-82
▁ta	-83
ug	-84
▁mɔgɔ	-85
olo	-86
▁ba	-87
▁in	-88
▁bɛɛ	-89
▁bɔ	-90
▁sa	-91
ogo	-92
kɛ	-93
▁kun	-94
▁fɛ	-95
igi	-96
▁mun	-97
▁kɔnɔ	-98
▁di	-99
ma	-100
▁e	-101
lan	-102
▁yɔrɔ	-103
▁den	-104
▁h	-105
ur	-106
▁fa	-107
▁olu	-108
▁dɔw	-109
ugu	-110
lɔ	-111
▁fana	-112
so	-113
▁kɔ	-114
gɛ	-115
uma	-116
aman	-117
▁si	-118
▁da	-119
ɔgɔn	-120
▁yen	-121
▁san	-122
▁fi	-123
lɛ	-124
▁ha	-125
▁ɲɛ	-126
elen	-127
ti	-128
na	-129
ɛb	-130
▁cogo	-131
uru	-132
▁bolo	-133
▁caman	-134
▁kelen	-135
ini	-136
▁ti	-137
ura	-138
▁fo	-139
▁dɔn	-140
ka	-141
ɛnɛ	-142
▁ɲɔgɔn	-143
▁bana	-144
▁cɛ	-145
▁kɔni	-146
▁to	-147
▁p	-148
si	-149
▁man	-150
sa	-151
fɛ	-152
ɛbɛ	-153
mɛ	-154
▁fura	-155
ɔna	-156
sɛbɛ	-157
▁kuma	-158
bu	-159
▁ja	-160
ama	-161
▁fɛnɛ	-162
▁bila	-163
▁kosɛbɛ	-164
▁ale	-165
▁mu	-166
▁ninnu	-167
▁kɔnɔna	-168
se	-169
ise	-170
▁ji	-171
▁ki	-172
no	-173
noise	-174
ki	-175
▁sis	-176
▁dɛ	-177
[?]	-178
▁minnu	-179
▁sigi	-180
▁kalan	-181
▁sisan	-182
inɛ	-183
▁so	-184
▁g	-185
fa	-186
▁saba	-187
▁te	-188
jɛ	-189
ni	-190
▁fɔlɔ	-191
ko	-192
ro	-193
▁yan	-194
ɔrɔn	-195
▁gɛ	-196
ɛna	-197
▁ca	-198
▁kɔrɔ	-199
▁wɛrɛ	-200
▁ban	-201
▁nana	-202
▁nɔ	-203
▁wari	-204
da	-205
▁muso	-206
▁fara	-207
▁hali	-208
re	-209
▁ani	-210
oli	-211
ɲɛ	-212
▁sɛnɛ	-213
ke	-214
▁tun	-215
▁pa	-216
▁nɔgɔ	-217
▁waa	-218
▁lajɛ	-219
▁du	-220
▁dugu	-221
ɛgɛ	-222
▁fan	-223
bi	-224
▁gɛlɛ	-225
igɛ	-226
yi	-227
▁yi	-228
▁dɔgɔ	-229
den	-230
▁nun	-231
kolo	-232
▁dɔrɔn	-233
▁mɔgɔw	-234
ee	-235
▁kɛra	-236
olu	-237
▁fila	-238
uni	-239
▁gɛlɛya	-240
▁jɔ	-241
isɛn	-242
▁tan	-243
▁jam	-244
▁bɛn	-245
mi	-246
mu	-247
▁munnu	-248
▁waati	-249
▁aw	-250
uman	-251
▁minɛ	-252
▁mɛ	-253
▁dun	-254
▁jamana	-255
kan	-256
mɔgɔ	-257
▁ga	-258
▁sira	-259
▁dam	-260
kili	-261
▁dɔɔn	-262
▁bon	-263
man	-264
▁ala	-265
▁dan	-266
seke	-267
▁ɔ	-268
▁tɔ	-269
eere	-270
te	-271
ɛlɛ	-272
▁mana	-273
▁tigi	-274
▁tigɛ	-275
▁feere	-276
▁nunnu	-277
▁bin	-278
nin	-279
tɔ	-280
ta	-281
▁kɛnɛ	-282
isa	-283
▁daminɛ	-284
misɛn	-285
▁nafa	-286
▁anw	-287
▁taara	-288
▁ɛ	-289
gati	-290
yɔrɔ	-291
▁ɲɛna	-292
▁wu	-293
▁ɲini	-294
▁paseke	-295
inin	-296
iya	-297
▁ya	-298
▁kana	-299
gan	-300
tɔrɔ	-301
ele	-302
▁kɔfɛ	-303
ku	-304
kɛla	-305
▁ten	-306
▁wagati	-307
▁wala	-308
isi	-309
▁jate	-310
▁sɔn	-311
▁furakɛ	-312
▁lab	-313
▁bɛna	-314
▁sen	-315
▁kɔlɔ	-316
▁tɛmɛ	-317
▁jɛ	-318
▁ŋ	-319
▁joli	-320
▁sababu	-321
▁foro	-322
lon	-323
▁denmisɛn	-324
kɔ	-325
▁tu	-326
▁wo	-327
▁fari	-328
▁sugu	-329
▁hakɛ	-330
kun	-331
▁dɔgɔtɔrɔ	-332
gin	-333
▁hakili	-334
▁do	-335
▁faa	-336
▁ku	-337
▁fini	-338
ani	-339
nen	-340
▁maa	-341
ale	-342
▁kalo	-343
di	-344
▁nka	-345
▁cogoya	-346
baga	-347
yɛn	-348
▁sera	-349
▁mi	-350
▁yɛlɛ	-351
▁sara	-352
▁sin	-353
tigi	-354
▁tug	-355
ji	-356
ɛbɛn	-357
▁ci	-358
▁bagan	-359
▁dum	-360
kɔrɔ	-361
▁sɛ	-362
▁kama	-363
▁kile	-364
▁sɛbɛn	-365
▁jum	-366
▁ɲuman	-367
lima	-368
▁faamu	-369
▁mara	-370
▁yiri	-371
fɛn	-372
▁cɛn	-373
▁su	-374
▁jumɛn	-375
isɛ	-376
▁foyi	-377
fɔ	-378
▁kɔlɔlɔ	-379
▁kala	-380
▁bɔra	-381
▁ɲa	-382
▁kila	-383
▁sabu	-384
▁duuru	-385
igin	-386
wu	-387
▁suma	-388
▁gi	-389
▁dumuni	-390
▁dɛmɛ	-391
risa	-392
▁walasa	-393
▁kɛr	-394
▁deg	-395
su	-396
▁ɛɛ	-397
▁wuli	-398
▁segin	-399
to	-400
wa	-401
ina	-402
▁furu	-403
▁wele	-404
▁kɛnɛya	-405
pa	-406
▁dɔɔnin	-407
▁jigin	-408
minɛ	-409
▁caya	-410
▁tɔgɔ	-411
▁jan	-412
▁denmisɛnnin	-413
cogo	-414
▁yira	-415
gɛn	-416
▁furakɛli	-417
▁boli	-418
bɔ	-419
▁taga	-420
▁ɲinin	-421
▁sɛgɛ	-422
ɲini	-423
dɔn	-424
▁tuguni	-425
fin	-426
▁kɛlɛ	-427
▁dɔɔni	-428
▁ɲi	-429
▁naani	-430
sin	-431
▁sanfɛ	-432
ɔnɔ	-433
▁kɛmɛ	-434
▁jateminɛ	-435
▁mɛn	-436
▁bu	-437
▁filɛ	-438
▁jugu	-439
▁minɛn	-440
liya	-441
ye	-442
▁kara	-443
▁tile	-444
▁misi	-445
yɛ	-446
▁farikolo	-447
▁sabula	-448
▁deli	-449
▁dilan	-450
bolo	-451
▁fanga	-452
▁kɛlen	-453
dama	-454
iri	-455
▁karisa	-456
▁dugukolo	-457
▁ŋa	-458
mɔgɔw	-459
▁sɔgɔ	-460
▁le	-461
▁tiɲɛ	-462
▁	-463
a	-464
n	-465
i	-466
ɛ	-467
k	-468
ɔ	-469
e	-470
b	-471
o	-472
l	-473
u	-474
s	-475
m	-476
y	-477
r	-478
d	-479
'	-480
f	-481
t	-482
[	-483
]	-484
g	-485
w	-486
c	-487
?	-488
j	-489
ɲ	-490
h	-491
p	-492
ŋ	-493
z	-494
-	-495
v	-496
q	-497
é	-498
0	-499
ô	-500
4	-501
à	-502
x	-503
è	-504
ù	-505
.	-506
1	-507
8	-508
S	-509
