<unk>	0
<pad>	0
▁k	-0
▁b	-1
an	-2
▁d	-3
▁n	-4
▁y	-5
▁m	-6
la	-7
▁ka	-8
▁t	-9
▁s	-10
▁f	-11
▁a	-12
in	-13
▁bɛ	-14
▁ye	-15
ɔn	-16
▁la	-17
ra	-18
en	-19
▁ma	-20
▁ko	-21
li	-22
un	-23
▁kɛ	-24
▁o	-25
ma	-26
▁an	-27
▁j	-28
on	-29
ɔr	-30
aa	-31
▁de	-32
▁min	-33
ɔg	-34
▁w	-35
▁c	-36
ɛn	-37
ɔrɔ	-38
▁i	-39
▁na	-40
▁ɲ	-41
▁ni	-42
ana	-43
▁fɔ	-44
ya	-45
▁tɛ	-46
ba	-47
ɔgɔ	-48
▁don	-49
ɛr	-50
len	-51
▁se	-52
ri	-53
ɛrɛ	-54
▁si	-55
le	-56
▁ba	-57
▁kɔn	-58
▁sa	-59
so	-60
▁wa	-61
▁bi	-62
▁ne	-63
lo	-64
▁taa	-65
▁u	-66
▁di	-67
si	-68
▁dɔ	-69
ti	-70
▁kan	-71
▁e	-72
▁yɛrɛ	-73
▁da	-74
▁ta	-75
▁p	-76
ur	-77
ka	-78
▁A	-79
gi	-80
ug	-81
uso	-82
go	-83
▁cɛ	-84
uma	-85
ga	-86
▁bɛɛ	-87
▁sɔrɔ	-88
am	-89
▁nin	-90
▁bɔ	-91
sa	-92
▁h	-93
▁mɔgɔ	-94
▁fa	-95
▁fɛ	-96
▁in	-97
olo	-98
▁ti	-99
▁ala	-100
▁kɔnɔ	-101
ugu	-102
▁den	-103
▁dɔn	-104
uru	-105
na	-106
kɛ	-107
▁fi	-108
ɔgɔn	-109
▁muso	-110
um	-111
lu	-112
ogo	-113
▁ke	-114
▁fɛn	-115
lɛ	-116
▁fo	-117
▁ɲɛ	-118
gɛ	-119
▁N	-120
▁ha	-121
▁kuma	-122
yi	-123
▁to	-124
▁kelen	-125
▁kɔ	-126
nu	-127
▁san	-128
▁K	-129
da	-130
ini	-131
▁ɲɔgɔn	-132
▁dɛ	-133
▁yen	-134
▁fana	-135
▁tun	-136
jɛ	-137
▁bolo	-138
mɛ	-139
▁kun	-140
▁aw	-141
mi	-142
▁so	-143
▁cogo	-144
qu	-145
re	-146
▁jam	-147
▁sigi	-148
▁pa	-149
▁ale	-150
bi	-151
▁baa	-152
▁un	-153
▁ji	-154
den	-155
▁bila	-156
ta	-157
ki	-158
▁yɔrɔ	-159
▁lajɛ	-160
▁olu	-161
▁jamana	-162
▁ja	-163
te	-164
ɲɛ	-165
▁qu	-166
▁dɔw	-167
sɛ	-168
ro	-169
▁baara	-170
lɔ	-171
fɛ	-172
▁saba	-173
ko	-174
se	-175
▁minnu	-176
ele	-177
▁unh	-178
di	-179
▁nana	-180
bu	-181
▁du	-182
▁unhun	-183
▁M	-184
▁yan	-185
fa	-186
▁ani	-187
▁kɛra	-188
▁maa	-189
▁kɔrɔ	-190
lan	-191
san	-192
▁mɛ	-193
ɛna	-194
▁que	-195
▁O	-196
kan	-197
inɛ	-198
▁man	-199
lima	-200
▁mun	-201
uman	-202
▁furu	-203
wa	-204
▁fila	-205
▁ku	-206
▁D	-207
▁tan	-208
▁ki	-209
▁waa	-210
tigi	-211
mɔgɔ	-212
▁<	-213
▁ban	-214
kɔrɔ	-215
▁kɔni	-216
man	-217
▁An	-218
bɛ	-219
▁kɔnɔn	-220
▁anw	-221
▁S	-222
▁su	-223
▁lajɛlen	-224
aman	-225
▁dugu	-226
▁jɔ	-227
ɔrɔn	-228
ce	-229
mu	-230
▁B	-231
gin	-232
muso	-233
▁fara	-234
▁I	-235
▁fɔlɔ	-236
ina	-237
▁g	-238
fi	-239
▁caman	-240
▁taara	-241
▁mali	-242
▁minɛ	-243
▁be	-244
▁nka	-245
▁hali	-246
▁tɔgɔ	-247
oli	-248
▁waati	-249
▁sira	-250
▁bɛna	-251
▁ya	-252
lon	-253
▁mi	-254
▁te	-255
▁ɲini	-256
▁sisan	-257
sɛbɛ	-258
ku	-259
HE	-260
▁sɔn	-261
▁kɛlɛ	-262
▁bon	-263
▁fan	-264
▁ɔ	-265
▁kɔnɔna	-266
▁bɛn	-267
▁ɲuman	-268
▁wala	-269
▁ninnu	-270
baga	-271
▁Ka	-272
rce	-273
▁wɛrɛ	-274
▁sɛ	-275
tɔ	-276
▁kana	-277
▁mɔgɔw	-278
▁bɔra	-279
▁faa	-280
▁tɔ	-281
kili	-282
▁nɔ	-283
▁dɔrɔn	-284
SI	-285
is	-286
▁dan	-287
inin	-288
▁jɛ	-289
▁kama	-290
▁ɛ	-291
▁wu	-292
▁sen	-293
▁ayi	-294
ni	-295
▁dun	-296
du	-297
▁ɲɛna	-298
ke	-299
▁tu	-300
uni	-301
▁U	-302
▁ci	-303
▁kosɛbɛ	-304
▁parce	-305
to	-306
▁kɛn	-307
ani	-308
▁lam	-309
▁tiɲɛ	-310
▁gɛ	-311
▁masa	-312
▁ca	-313
IN	-314
▁W	-315
▁mara	-316
▁mana	-317
aw	-318
ji	-319
▁kɛnɛ	-320
sɛn	-321
▁hakili	-322
▁jɔn	-323
ran	-324
▁kari	-325
▁sara	-326
▁F	-327
▁Ko	-328
tu	-329
ɛlɛ	-330
yɔrɔ	-331
▁tuma	-332
kɔrɔba	-333
▁E	-334
ere	-335
▁lab	-336
denw	-337
▁tile	-338
▁balima	-339
▁fu	-340
▁jum	-341
▁mɛn	-342
▁foli	-343
▁Wa	-344
▁ga	-345
▁sun	-346
LE	-347
CO	-348
MP	-349
RÉ	-350
BLE	-351
HEN	-352
COMP	-353
HENSI	-354
COMPRÉ	-355
HENSIBLE	-356
INCOMPRÉ	-357
INCOMPRÉHENSIBLE	-358
▁foyi	-359
misɛn	-360
▁nɛ	-361
▁wuli	-362
▁filɛ	-363
▁jumɛn	-364
kɔ	-365
ale	-366
▁kara	-367
fɔ	-368
▁sera	-369
nin	-370
bɔ	-371
▁wo	-372
▁wari	-373
▁dɔgɔ	-374
▁v	-375
minɛ	-376
▁tɛmɛ	-377
▁mo	-378
▁sababu	-379
▁tigɛ	-380
▁jugu	-381
▁segin	-382
▁wele	-383
dama	-384
jugu	-385
iri	-386
▁tila	-387
▁diya	-388
▁ɲinin	-389
▁waga	-390
▁T	-391
▁ten	-392
eli	-393
▁kala	-394
▁gɛlɛ	-395
wu	-396
▁jira	-397
▁mais	-398
sɔn	-399
▁Ɔ	-400
▁z	-401
▁diɲɛ	-402
kun	-403
▁ara	-404
bali	-405
▁yɛlɛ	-406
▁ee	-407
▁denmisɛn	-408
▁kalan	-409
hi	-410
▁nɛgɛ	-411
▁tigi	-412
ɛnɛ	-413
▁ɲa	-414
▁Ni	-415
▁jan	-416
▁ɛɛ	-417
▁Ne	-418
▁donc	-419
▁po	-420
▁	-421
a	-422
n	-423
i	-424
ɛ	-425
k	-426
e	-427
ɔ	-428
o	-429
l	-430
b	-431
m	-432
u	-433
s	-434
d	-435
y	-436
r	-437
t	-438
'	-439
f	-440
g	-441
w	-442
j	-443
c	-444
ɲ	-445
h	-446
p	-447
A	-448
N	-449
I	-450
E	-451
K	-452
M	-453
O	-454
q	-455
S	-456
B	-457
z	-458
U	-459
C	-460
D	-461
<	-462
>	-463
H	-464
é	-465
P	-466
v	-467
R	-468
T	-469
L	-470
-	-471
W	-472
F	-473
É	-474
Ɔ	-475
ŋ	-476
J	-477
Ɛ	-478
x	-479
V	-480
Y	-481
Q	-482
à	-483
è	-484
Ɲ	-485
ç	-486
G	-487
’	-488
ê	-489
Z	-490
ô	-491
î	-492
â	-493
ï	-494
Ŋ	-495
ـ	-496
û	-497
œ	-498
ù	-499
ë	-500
X	-501
_	-502
ɓ	-503
ԑ	-504
,	-505
ė	-506
ķ	-507
ɾ	-508
ʿ	-509
