k
b
##an
d
n
y
m
##la
ka
t
s
f
a
##in
bɛ
ye
##ɔn
la
##ra
##en
ma
ko
##li
##un
kɛ
o
##ma
an
j
##on
##ɔr
##aa
de
min
##ɔg
w
c
##ɛn
##ɔrɔ
i
na
ɲ
ni
##ana
fɔ
##ya
tɛ
##ba
##ɔgɔ
don
##ɛr
##len
se
##ri
##ɛrɛ
si
##le
ba
kɔn
sa
##so
wa
bi
ne
##lo
taa
u
di
##si
dɔ
##ti
kan
e
yɛrɛ
da
ta
p
##ur
##ka
A
##gi
##ug
##uso
##go
cɛ
##uma
##ga
bɛɛ
sɔrɔ
##am
nin
bɔ
##sa
h
mɔgɔ
fa
fɛ
in
##olo
ti
ala
kɔnɔ
##ugu
den
dɔn
##uru
##na
##kɛ
fi
##ɔgɔn
muso
##um
##lu
##ogo
ke
fɛn
##lɛ
fo
ɲɛ
##gɛ
N
ha
kuma
##yi
to
kelen
kɔ
##nu
san
K
##da
##ini
ɲɔgɔn
dɛ
yen
fana
tun
##jɛ
bolo
##mɛ
kun
aw
##mi
so
cogo
##qu
##re
jam
sigi
pa
ale
##bi
baa
un
ji
##den
bila
##ta
##ki
yɔrɔ
lajɛ
olu
jamana
ja
##te
##ɲɛ
qu
dɔw
##sɛ
##ro
baara
##lɔ
##fɛ
saba
##ko
##se
minnu
##ele
unh
##di
nana
##bu
du
unhun
M
yan
##fa
ani
kɛra
maa
kɔrɔ
##lan
##san
mɛ
##ɛna
que
O
##kan
##inɛ
man
##lima
mun
##uman
furu
##wa
fila
ku
D
tan
ki
waa
##tigi
##mɔgɔ
<
ban
##kɔrɔ
kɔni
##man
An
##bɛ
kɔnɔn
anw
S
su
lajɛlen
##aman
dugu
jɔ
##ɔrɔn
##ce
##mu
B
##gin
##muso
fara
I
fɔlɔ
##ina
g
##fi
caman
taara
mali
minɛ
be
nka
hali
tɔgɔ
##oli
waati
sira
bɛna
ya
##lon
mi
te
ɲini
sisan
##sɛbɛ
##ku
##HE
sɔn
kɛlɛ
bon
fan
ɔ
kɔnɔna
bɛn
ɲuman
wala
ninnu
##baga
Ka
##rce
wɛrɛ
sɛ
##tɔ
kana
mɔgɔw
bɔra
faa
tɔ
##kili
nɔ
dɔrɔn
##SI
##is
dan
##inin
jɛ
kama
ɛ
wu
sen
ayi
##ni
dun
##du
ɲɛna
##ke
tu
##uni
U
ci
kosɛbɛ
parce
##to
kɛn
##ani
lam
tiɲɛ
gɛ
masa
ca
##IN
W
mara
mana
##aw
##ji
kɛnɛ
##sɛn
hakili
jɔn
##ran
kari
sara
F
Ko
##tu
##ɛlɛ
##yɔrɔ
tuma
##kɔrɔba
E
##ere
lab
##denw
tile
balima
fu
jum
mɛn
foli
Wa
ga
sun
##LE
##CO
##MP
##RÉ
##BLE
##HEN
##COMP
##HENSI
##COMPRÉ
##HENSIBLE
##INCOMPRÉ
##INCOMPRÉHENSIBLE
foyi
##misɛn
nɛ
wuli
filɛ
jumɛn
##kɔ
##ale
kara
##fɔ
sera
##nin
##bɔ
wo
wari
dɔgɔ
v
##minɛ
tɛmɛ
mo
sababu
tigɛ
jugu
segin
wele
##dama
##jugu
##iri
tila
diya
ɲinin
waga
T
ten
##eli
kala
gɛlɛ
##wu
jira
mais
##sɔn
Ɔ
z
diɲɛ
##kun
ara
##bali
yɛlɛ
ee
denmisɛn
kalan
##hi
nɛgɛ
tigi
##ɛnɛ
ɲa
Ni
jan
ɛɛ
Ne
donc
po
▁
##a
##n
##i
##ɛ
##k
##e
##ɔ
##o
##l
##b
##m
##u
##s
##d
##y
##r
##t
##'
##f
##g
##w
##j
##c
##ɲ
##h
##p
##A
##N
##I
##E
##K
##M
##O
##q
##S
##B
##z
##U
##C
##D
##<
##>
##H
##é
##P
##v
##R
##T
##L
##-
##W
##F
##É
##Ɔ
##ŋ
##J
##Ɛ
##x
##V
##Y
##Q
##à
##è
##Ɲ
##ç
##G
##’
##ê
##Z
##ô
##î
##â
##ï
##Ŋ
##ـ
##û
##œ
##ù
##ë
##X
##_
##ɓ
##ԑ
##,
##ė
##ķ
##ɾ
##ʿ
