k
##an
b
n
y
d
##la
m
ka
t
##in
ye
s
f
a
##en
bɛ
la
##ra
##ɔn
##li
ko
##un
##ma
##on
##ɛn
A
j
ma
min
o
##ɔg
na
##ɔr
##ya
##aa
ni
kɛ
##ba
##ɔrɔ
##ri
##len
w
##ig
##ana
c
##ɔgɔ
ɲ
an
i
N
##lo
de
K
##ka
##ug
kan
u
##le
M
##igi
##ga
tɛ
##go
don
da
S
##ugu
ba
se
##si
##olo
fɔ
##so
##kɛ
##ila
##na
kɔn
sa
##ur
ne
be
fa
##sa
##man
##ɛr
ta
di
##uma
taa
fɛ
wa
##ogo
ani
tun
##lu
##ko
##ɛrɛ
B
ke
mɔgɔ
si
O
dɔ
kɔnɔ
##ro
aw
nin
bɔ
##ti
##da
D
##lɛ
bɛɛ
##mu
sɔrɔ
kun
cɛ
##ki
##uru
##nu
h
ja
##re
##ɔgɔn
##ta
den
ɲɛ
Ma
##lan
fo
##ini
kelen
Ala
F
«
kɔ
to
U
##ni
so
san
J
e
minnu
##den
p
##uso
bolo
##kan
in
bi
##tigi
##fa
ti
sigi
##ɲɛ
ha
yɛrɛ
dɔn
fi
:
dugu
T
kɔrɔ
g
##yi
Ka
du
##lɔ
muso
##aara
##mi
##ye
I
##di
ɲɔgɔn
yen
bila
te
ji
##ku
nana
Ba
ca
1
##lon
fana
##mana
##bɛn
(
fɛn
##ɛna
2
##te
##mɛ
##sɛ
cogo
##se
##ke
Ni
olu
##oli
kuma
##iri
##baga
##bu
##fɛ
baara
##jɛ
##ɛnɛ
##wa
##ɛlɛ
dun
ban
##igɛ
##uman
##bi
Y
tuma
##ura
##to
##min
dan
##mɔgɔ
yɔrɔ
##kun
##ere
sen
##kɔrɔ
nka
##kili
man
##gɛ
kɛra
fila
##ele
An
dɛ
saba
##..
##nen
##aw
sɛ
»
##san
##tɔ
##lima
##kolo
ci
##yɔrɔ
##bɔ
Ne
fara
su
ny
##ama
##zu
##oro
jɔ
wu
kɛlɛ
kana
##ran
fe
fan
##inin
?
!
##ge
jamana
yan
ku
caman
W
##muso
sɔn
##du
tile
mɔgɔw
L
H
bo
3
Ye
##gin
jɛ
tɔgɔ
dɔw
Fa
Se
Ko
##ani
##yɛn
sira
bɛn
##mɛn
do
C
bon
E
wala
Yezu
##kɔ
##bali
##tan
Mɔgɔ
P
##don
##ji
anw
faa
##ili
taara
##ɔrɔn
##tigɛ
ale
fɔlɔ
taga
minɛ
Si
##fɔ
##aati
kama
sara
##ban
tɔ
##eli
kalan
tu
##isi
walasa
##kɛla
Aw
##uni
Ja
Nka
##sɔn
##inɛ
##ɲɔgɔn
mun
##ina
hakili
##bɛ
mara
wɛrɛ
tan
G
##su
##denw
##cogo
bɛna
kɛnɛ
##igin
##nin
bɔra
Mali
Z
Sa
wuli
##qu
furu
##sɛn
kon
##fɛn
waati
ɲini
"
-
ga
wele
##gu
##kulu
masa
jugu
##yɛ
tigi
nɔ
Ha
##urun
faga
bin
mana
.
maa
##de
nye
##sen
##ja
ki
##ula
##riya
Wa
ɲuman
jɔn
bana
##gan
le
##bolo
kɔni
##minɛ
##oni
ɲɛna
4
##fe
jan
##fi
ju
boli
jira
Ɲ
##ɔnɔ
##.»
tigɛ
##lɛn
##me
##jugu
segin
##cɛ
bee
Den
wo
##sigi
##zi
ce
walima
sogo
ninnu
;
filɛ
taama
mɛn
##misɛn
Nin
##...
##kala
##tugu
sera
ɲinin
dɔgɔ
sin
pa
##bila
soro
yɛlɛ
Da
##raw
##er
##muni
lajɛ
mi
Segu
fura
sɛbɛn
diya
kono
##kari
##baw
jo
##tɛ
##tu
20
##es
fari
jigin
##be
kunna
wolo
jama
sisan
kala
##ha
hali
##mɔgɔw
tug
##bo
son
jeli
La
Masa
labɛn
wale
##rin
tiɲɛ
##ɔni
##manan
hakɛ
ten
##dɔn
sigilen
ya
laban
mo
##fin
##yali
fanga
ŋ
##ci
Muso
Cɛ
##jan
kɔfɛ
##bagaw
bari
##kaw
dumuni
##wo
##dan
##sira
tila
jaa
##kolon
##ɛgɛ
##lenw
San
##gi
##son
##dama
Man
ala
##ɛlɛya
wari
##kow
##umu
##sɛbɛn
##gon
##men
Ki
balima
balo
tɛmɛ
##rɛ
koro
Ku
##diya
##ona
##sɛbɛ
##folo
##sin
faamu
##kɔrɔba
##ɛlɛn
##ru
ro
bara
##kelen
,
##ris
kulu
##que
donna
tɔn
##mo
##kɛlaw
yere
dusu
ɲininka
kosɔn
##mani
denw
siri
mu
siran
Matigi
diɲɛ
##fan
tora
sababu
un
##ene
dɔrɔn
Maa
##wu
##tigiw
jaabi
kosɛbɛ
bu
fili
##do
##hun
##rista
##yan
##siri
Krista
##ɲɛna
tɛna
##tɔn
Un
dama
bonya
tugun
##fu
deli
gɛlɛya
Ɛ
##gɛn
Ta
foro
kɔnɔn
dilan
kɛlen
bamanan
jate
##ron
katugu
l
dogo
Ɔ
daminɛ
iko
##ɔli
##yiwa
mɛ
kari
##fara
kiri
jiri
Ti
So
##kalo
barika
##sɔrɔ
go
nto
##bini
naani
##kuma
dɛmɛ
##olu
##ce
Don
fini
##je
Min
ɔ
pe
nan
kura
tɛmɛn
##00
lase
##fo
donso
##1)
##3)
##yara
##dɔ
sabu
##6)
##8)
##firi
kungo
##5)
##hi
##rɛn
##ramɔgɔ
##7)
sun
kanu
##ɲuman
poli
##2)
##baa
##mini
##tion
mɔ
pere
sugu
danna
##9)
##sp
##yen
##suma
##4)
##YƐ
masakɛ
denmisɛn
##lɔsi
denkɛ
##ɛɛ
foyi
dugukolo
farikolo
##foni
wali
faama
bilen
##gɔ
##iga
ɲi
5
##kɔnɔ
nyo
Bama
nɛgɛ
Dugu
sariya
##0)
##ju
[
##mun
fen
kaba
##mɔ
Bi
nafolo
##st
##kura
Dan
fisa
sigida
no
laa
wulila
##elen
##taa
##yaw
r
##kuru
yaa
##aamu
##zidan
nafa
musow
##taw
kow
##baara
dalen
kɛnɛya
falen
)
##ɔri
##wula
##lt
Olu
filan
li
##fɛnw
yɛlɛma
ɲa
##ɲini
joli
##law
Mo
teri
##koro
mogo
##gt
##ɛni
19
bɔn
ɲɛmɔgɔ
kolo
juru
Na
Kun
sɔ
##maya
misi
##damaden
les
yoro
jumɛn
tɔw
tilen
##ale
##kisɛ
##tiki
jigi
Bakari
##nan
po
kalo
ɲama
Ga
##uruku
tugu
##eni
sama
duuru
co
saya
##!)
##fili
##ɔnin
Ale
numu
##uran
jala
nɔgɔ
Sigi
wolon
##madu
Kan
##jɔ
6
Di
##ɲa
Jɔn
sɛnɛ
##sɔ
dala
mago
##is
baa
kali
Jamana
sani
tagara
##bara
##liw
##yo
##ena
et
##daw
##bana
jɔyɔrɔ
ɲɔ
daga
Unhun
kabini
##usa
sɔgɔ
perezidan
Anw
ɲin
kunnafoni
##dugu
sago
##dala
kɛmɛ
mari
Fan
##baliya
bange
##buru
bali
feere
##té
Su
fɔra
baro
tulo
##»,
##maw
np
##kana
##latan
diyɛn
qu
##raba
bala
##ut
##jɔn
Dɔ
nyogon
Hali
banna
##ent
##tigiya
miiri
##wari
kɔlɔsi
Hakili
##anw
seli
faso
wɛrɛw
fɛɛrɛ
tasuma
Ani
Bu
Jɛ
▁
##a
##n
##i
##k
##e
##ɛ
##o
##l
##ɔ
##u
##b
##m
##y
##s
##r
##t
##d
##g
##,
##.
##f
##w
##'
##j
##A
##ɲ
##c
##N
##K
##M
##S
##h
##B
##’
##)
##:
##p
##O
##D
##!
##?
##1
##I
##F
##U
##2
##«
##»
##J
##-
##z
##T
##0
##3
##Y
##E
##;
##(
##4
##9
##5
##é
##8
##6
##L
##H
##7
##W
##"
##C
##P
##G
##Z
##Ɛ
##q
##v
##ε
##Ɲ
##&
##ŋ
##Ɔ
##>
##R
##x
##[
##]
##/
##è
##à
##<
##ê
##–
##X
##V
##î
##Ŋ
##+
##â
##­
##Q
##%
##=
##ʃ
##ô
##ç
##*
##ù
##û
##̀
##|
##”
##{
##°
##“
##}
##œ
##ì
##‘
##€
##@
##ò
##_
##ï
##ǩ
##`
##É
###
##̌
##~
##̧
##—
##§
##Ç
##ā
##Č
##̂
##$
##À
##Ê
##í
##ī
##ř
##ǎ
##ǒ
##ǔ
##ɾ
##ʿ
##ḥ
