<unk>	0
<pad>	0
▁d	-0
▁l	-1
es	-2
on	-3
▁p	-4
▁c	-5
▁a	-6
en	-7
ou	-8
▁s	-9
qu	-10
▁t	-11
il	-12
▁m	-13
an	-14
ai	-15
▁qu	-16
er	-17
re	-18
▁n	-19
▁de	-20
▁f	-21
▁le	-22
▁v	-23
▁pa	-24
est	-25
▁il	-26
ent	-27
it	-28
▁la	-29
▁e	-30
is	-31
le	-32
▁b	-33
un	-34
▁j	-35
▁ce	-36
▁que	-37
▁les	-38
om	-39
ar	-40
eu	-41
our	-42
ont	-43
oi	-44
ous	-45
or	-46
▁à	-47
▁pas	-48
▁est	-49
▁un	-50
▁r	-51
in	-52
ait	-53
me	-54
▁ch	-55
▁g	-56
▁tu	-57
▁en	-58
ais	-59
la	-60
ant	-61
▁au	-62
▁et	-63
te	-64
am	-65
as	-66
▁je	-67
au	-68
▁par	-69
ti	-70
onn	-71
and	-72
ri	-73
al	-74
ui	-75
ur	-76
▁ne	-77
lle	-78
ch	-79
▁qui	-80
ans	-81
▁dit	-82
em	-83
▁é	-84
▁di	-85
▁pr	-86
▁tr	-87
▁pour	-88
▁av	-89
▁des	-90
ons	-91
ce	-92
▁si	-93
▁ils	-94
ère	-95
▁nous	-96
us	-97
▁dans	-98
tre	-99
▁h	-100
se	-101
ge	-102
▁du	-103
▁se	-104
▁sont	-105
▁com	-106
end	-107
ci	-108
out	-109
ab	-110
▁ét	-111
▁re	-112
▁une	-113
ien	-114
si	-115
▁on	-116
ois	-117
▁son	-118
pp	-119
▁lui	-120
ain	-121
▁k	-122
▁che	-123
▁mais	-124
ec	-125
ra	-126
os	-127
▁fait	-128
és	-129
▁sa	-130
res	-131
et	-132
ll	-133
▁ont	-134
▁mar	-135
mes	-136
▁y	-137
ille	-138
▁cela	-139
ouv	-140
▁mon	-141
▁peu	-142
at	-143
▁fem	-144
ir	-145
ers	-146
▁elle	-147
ux	-148
ée	-149
uis	-150
▁quand	-151
▁avec	-152
li	-153
▁vous	-154
de	-155
▁gr	-156
ils	-157
que	-158
▁te	-159
ça	-160
▁ça	-161
ment	-162
▁vi	-163
onne	-164
▁tout	-165
ès	-166
fant	-167
▁dé	-168
▁ven	-169
pr	-170
▁sur	-171
ati	-172
▁leur	-173
eur	-174
▁as	-175
▁pl	-176
ad	-177
elle	-178
ême	-179
▁dieu	-180
oir	-181
▁ar	-182
▁dis	-183
ot	-184
aire	-185
▁ma	-186
▁femme	-187
ort	-188
av	-189
▁cet	-190
▁ent	-191
▁app	-192
▁mari	-193
ol	-194
ag	-195
▁ré	-196
▁ou	-197
ens	-198
eau	-199
illa	-200
▁donn	-201
ass	-202
▁o	-203
▁nom	-204
▁ton	-205
▁grand	-206
▁villa	-207
ak	-208
▁enfant	-209
▁in	-210
▁roi	-211
▁pro	-212
che	-213
▁jour	-214
▁am	-215
ang	-216
ac	-217
ve	-218
té	-219
ff	-220
▁quel	-221
▁là	-222
▁même	-223
ors	-224
eux	-225
oup	-226
▁i	-227
▁cette	-228
uit	-229
aient	-230
▁village	-231
▁toi	-232
age	-233
▁hom	-234
▁all	-235
▁bien	-236
ie	-237
onc	-238
oit	-239
▁moi	-240
▁aus	-241
gn	-242
▁chez	-243
▁aussi	-244
ue	-245
ba	-246
▁fr	-247
▁comme	-248
▁tous	-249
oy	-250
ill	-251
▁an	-252
▁pers	-253
di	-254
▁faire	-255
ul	-256
jour	-257
tu	-258
ation	-259
▁es	-260
▁va	-261
près	-262
▁sé	-263
▁dev	-264
▁père	-265
▁plus	-266
▁était	-267
▁gri	-268
gou	-269
▁griot	-270
▁bon	-271
▁ser	-272
ét	-273
▁dem	-274
▁suis	-275
▁part	-276
uer	-277
ré	-278
▁al	-279
▁ac	-280
ier	-281
▁me	-282
▁après	-283
app	-284
ion	-285
▁ces	-286
▁ta	-287
ité	-288
▁arri	-289
▁parti	-290
ala	-291
▁bam	-292
ter	-293
▁for	-294
tes	-295
▁ses	-296
▁no	-297
▁cou	-298
▁fam	-299
▁fils	-300
▁gar	-301
ose	-302
aut	-303
▁dire	-304
▁gens	-305
▁trouv	-306
ara	-307
el	-308
▁con	-309
▁sou	-310
ger	-311
▁avait	-312
etit	-313
▁alors	-314
▁petit	-315
▁main	-316
▁trav	-317
▁été	-318
▁beau	-319
▁personne	-320
▁ai	-321
être	-322
rai	-323
▁où	-324
▁eu	-325
▁guer	-326
▁jus	-327
endre	-328
▁mère	-329
mp	-330
▁deux	-331
né	-332
lles	-333
▁mal	-334
▁tou	-335
ord	-336
▁arriv	-337
jourd	-338
▁demand	-339
▁ici	-340
▁chose	-341
▁venu	-342
▁famille	-343
▁enfants	-344
bl	-345
ert	-346
▁non	-347
ance	-348
cher	-349
aiss	-350
ne	-351
▁trois	-352
▁chef	-353
une	-354
▁peut	-355
ép	-356
ché	-357
▁mam	-358
▁ni	-359
all	-360
asse	-361
▁entre	-362
▁jusqu	-363
▁aux	-364
du	-365
ut	-366
lui	-367
oro	-368
coup	-369
▁li	-370
▁beaucoup	-371
▁maison	-372
▁monde	-373
erci	-374
▁pay	-375
▁som	-376
▁vais	-377
ères	-378
▁notre	-379
▁cher	-380
▁celui	-381
▁donc	-382
oin	-383
▁oui	-384
▁sal	-385
▁femmes	-386
ez	-387
tr	-388
ani	-389
bre	-390
ête	-391
▁ah	-392
▁aujourd	-393
ement	-394
ème	-395
co	-396
ér	-397
▁vie	-398
▁comm	-399
▁hommes	-400
hui	-401
▁conn	-402
orte	-403
▁fais	-404
▁fin	-405
▁donné	-406
ig	-407
▁pass	-408
ari	-409
▁cont	-410
▁ségou	-411
▁parce	-412
▁guerre	-413
emp	-414
▁eux	-415
▁vrai	-416
▁forger	-417
▁frère	-418
bas	-419
▁rest	-420
▁homme	-421
ants	-422
tres	-423
▁ex	-424
▁chev	-425
ble	-426
eurs	-427
▁nos	-428
▁at	-429
▁ca	-430
▁trava	-431
ma	-432
ten	-433
▁dj	-434
▁prop	-435
▁met	-436
▁pays	-437
▁eh	-438
ern	-439
▁acc	-440
▁mes	-441
▁seu	-442
iens	-443
illes	-444
▁quelqu	-445
og	-446
iss	-447
▁cas	-448
▁	-449
e	-450
a	-451
s	-452
i	-453
n	-454
t	-455
u	-456
l	-457
r	-458
o	-459
d	-460
m	-461
c	-462
p	-463
é	-464
v	-465
'	-466
q	-467
f	-468
b	-469
g	-470
h	-471
j	-472
à	-473
è	-474
k	-475
-	-476
y	-477
x	-478
ê	-479
z	-480
ç	-481
ô	-482
î	-483
â	-484
ù	-485
w	-486
0	-487
ɔ	-488
û	-489
œ	-490
ɛ	-491
1	-492
2	-493
ï	-494
ɲ	-495
5	-496
4	-497
9	-498
3	-499
7	-500
8	-501
6	-502
ŋ	-503
ë	-504
ā	-505
ö	-506
ī	-507
ʿ	-508
ḥ	-509
