<unk>	0
<pad>	0
▁k	-0
an	-1
▁b	-2
▁n	-3
▁y	-4
▁d	-5
la	-6
▁m	-7
▁ka	-8
▁t	-9
in	-10
▁ye	-11
▁s	-12
▁f	-13
▁a	-14
en	-15
▁bɛ	-16
▁la	-17
ra	-18
ɔn	-19
li	-20
▁ko	-21
un	-22
ma	-23
on	-24
ɛn	-25
▁A	-26
▁j	-27
▁ma	-28
▁min	-29
▁o	-30
ɔg	-31
▁na	-32
ɔr	-33
ya	-34
aa	-35
▁ni	-36
▁kɛ	-37
ba	-38
ɔrɔ	-39
ri	-40
len	-41
▁w	-42
ig	-43
ana	-44
▁c	-45
ɔgɔ	-46
▁ɲ	-47
▁an	-48
▁i	-49
▁N	-50
lo	-51
▁de	-52
▁K	-53
ka	-54
ug	-55
▁kan	-56
▁u	-57
le	-58
▁M	-59
igi	-60
ga	-61
▁tɛ	-62
go	-63
▁don	-64
▁da	-65
▁S	-66
ugu	-67
▁ba	-68
▁se	-69
si	-70
olo	-71
▁fɔ	-72
so	-73
kɛ	-74
ila	-75
na	-76
▁kɔn	-77
▁sa	-78
ur	-79
▁ne	-80
▁be	-81
▁fa	-82
sa	-83
man	-84
ɛr	-85
▁ta	-86
▁di	-87
uma	-88
▁taa	-89
▁fɛ	-90
▁wa	-91
ogo	-92
▁ani	-93
▁tun	-94
lu	-95
ko	-96
ɛrɛ	-97
▁B	-98
▁ke	-99
▁mɔgɔ	-100
▁si	-101
▁O	-102
▁dɔ	-103
▁kɔnɔ	-104
ro	-105
▁aw	-106
▁nin	-107
▁bɔ	-108
ti	-109
da	-110
▁D	-111
lɛ	-112
▁bɛɛ	-113
mu	-114
▁sɔrɔ	-115
▁kun	-116
▁cɛ	-117
ki	-118
uru	-119
nu	-120
▁h	-121
▁ja	-122
re	-123
ɔgɔn	-124
ta	-125
▁den	-126
▁ɲɛ	-127
▁Ma	-128
lan	-129
▁fo	-130
ini	-131
▁kelen	-132
▁Ala	-133
▁F	-134
▁«	-135
▁kɔ	-136
▁to	-137
▁U	-138
ni	-139
▁so	-140
▁san	-141
▁J	-142
▁e	-143
▁minnu	-144
den	-145
▁p	-146
uso	-147
▁bolo	-148
kan	-149
▁in	-150
▁bi	-151
tigi	-152
fa	-153
▁ti	-154
▁sigi	-155
ɲɛ	-156
▁ha	-157
▁yɛrɛ	-158
▁dɔn	-159
▁fi	-160
▁:	-161
▁dugu	-162
▁T	-163
▁kɔrɔ	-164
▁g	-165
yi	-166
▁Ka	-167
▁du	-168
lɔ	-169
▁muso	-170
aara	-171
mi	-172
ye	-173
▁I	-174
di	-175
▁ɲɔgɔn	-176
▁yen	-177
▁bila	-178
▁te	-179
▁ji	-180
ku	-181
▁nana	-182
▁Ba	-183
▁ca	-184
▁1	-185
lon	-186
▁fana	-187
mana	-188
bɛn	-189
▁(	-190
▁fɛn	-191
ɛna	-192
▁2	-193
te	-194
mɛ	-195
sɛ	-196
▁cogo	-197
se	-198
ke	-199
▁Ni	-200
▁olu	-201
oli	-202
▁kuma	-203
iri	-204
baga	-205
bu	-206
fɛ	-207
▁baara	-208
jɛ	-209
ɛnɛ	-210
wa	-211
ɛlɛ	-212
▁dun	-213
▁ban	-214
igɛ	-215
uman	-216
bi	-217
▁Y	-218
▁tuma	-219
ura	-220
to	-221
min	-222
▁dan	-223
mɔgɔ	-224
▁yɔrɔ	-225
kun	-226
ere	-227
▁sen	-228
kɔrɔ	-229
▁nka	-230
kili	-231
▁man	-232
gɛ	-233
▁kɛra	-234
▁fila	-235
ele	-236
▁An	-237
▁dɛ	-238
▁saba	-239
..	-240
nen	-241
aw	-242
▁sɛ	-243
▁»	-244
san	-245
tɔ	-246
lima	-247
kolo	-248
▁ci	-249
yɔrɔ	-250
bɔ	-251
▁Ne	-252
▁fara	-253
▁su	-254
▁ny	-255
ama	-256
zu	-257
oro	-258
▁jɔ	-259
▁wu	-260
▁kɛlɛ	-261
▁kana	-262
ran	-263
▁fe	-264
▁fan	-265
inin	-266
▁?	-267
▁!	-268
ge	-269
▁jamana	-270
▁yan	-271
▁ku	-272
▁caman	-273
▁W	-274
muso	-275
▁sɔn	-276
du	-277
▁tile	-278
▁mɔgɔw	-279
▁L	-280
▁H	-281
▁bo	-282
▁3	-283
▁Ye	-284
gin	-285
▁jɛ	-286
▁tɔgɔ	-287
▁dɔw	-288
▁Fa	-289
▁Se	-290
▁Ko	-291
ani	-292
yɛn	-293
▁sira	-294
▁bɛn	-295
mɛn	-296
▁do	-297
▁C	-298
▁bon	-299
▁E	-300
▁wala	-301
▁Yezu	-302
kɔ	-303
bali	-304
tan	-305
▁Mɔgɔ	-306
▁P	-307
don	-308
ji	-309
▁anw	-310
▁faa	-311
ili	-312
▁taara	-313
ɔrɔn	-314
tigɛ	-315
▁ale	-316
▁fɔlɔ	-317
▁taga	-318
▁minɛ	-319
▁Si	-320
fɔ	-321
aati	-322
▁kama	-323
▁sara	-324
ban	-325
▁tɔ	-326
eli	-327
▁kalan	-328
▁tu	-329
isi	-330
▁walasa	-331
kɛla	-332
▁Aw	-333
uni	-334
▁Ja	-335
▁Nka	-336
sɔn	-337
inɛ	-338
ɲɔgɔn	-339
▁mun	-340
ina	-341
▁hakili	-342
bɛ	-343
▁mara	-344
▁wɛrɛ	-345
▁tan	-346
▁G	-347
su	-348
denw	-349
cogo	-350
▁bɛna	-351
▁kɛnɛ	-352
igin	-353
nin	-354
▁bɔra	-355
▁Mali	-356
▁Z	-357
▁Sa	-358
▁wuli	-359
qu	-360
▁furu	-361
sɛn	-362
▁kon	-363
fɛn	-364
▁waati	-365
▁ɲini	-366
▁"	-367
▁-	-368
▁ga	-369
▁wele	-370
gu	-371
kulu	-372
▁masa	-373
▁jugu	-374
yɛ	-375
▁tigi	-376
▁nɔ	-377
▁Ha	-378
urun	-379
▁faga	-380
▁bin	-381
▁mana	-382
▁.	-383
▁maa	-384
de	-385
▁nye	-386
sen	-387
ja	-388
▁ki	-389
ula	-390
riya	-391
▁Wa	-392
▁ɲuman	-393
▁jɔn	-394
▁bana	-395
gan	-396
▁le	-397
bolo	-398
▁kɔni	-399
minɛ	-400
oni	-401
▁ɲɛna	-402
▁4	-403
fe	-404
▁jan	-405
fi	-406
▁ju	-407
▁boli	-408
▁jira	-409
▁Ɲ	-410
ɔnɔ	-411
.»	-412
▁tigɛ	-413
lɛn	-414
me	-415
jugu	-416
▁segin	-417
cɛ	-418
▁bee	-419
▁Den	-420
▁wo	-421
sigi	-422
zi	-423
▁ce	-424
▁walima	-425
▁sogo	-426
▁ninnu	-427
▁;	-428
▁filɛ	-429
▁taama	-430
▁mɛn	-431
misɛn	-432
▁Nin	-433
...	-434
kala	-435
tugu	-436
▁sera	-437
▁ɲinin	-438
▁dɔgɔ	-439
▁sin	-440
▁pa	-441
bila	-442
▁soro	-443
▁yɛlɛ	-444
▁Da	-445
raw	-446
er	-447
muni	-448
▁lajɛ	-449
▁mi	-450
▁Segu	-451
▁fura	-452
▁sɛbɛn	-453
▁diya	-454
▁kono	-455
kari	-456
baw	-457
▁jo	-458
tɛ	-459
tu	-460
▁20	-461
es	-462
▁fari	-463
▁jigin	-464
be	-465
▁kunna	-466
▁wolo	-467
▁jama	-468
▁sisan	-469
▁kala	-470
ha	-471
▁hali	-472
mɔgɔw	-473
▁tug	-474
bo	-475
▁son	-476
▁jeli	-477
▁La	-478
▁Masa	-479
▁labɛn	-480
▁wale	-481
rin	-482
▁tiɲɛ	-483
ɔni	-484
manan	-485
▁hakɛ	-486
▁ten	-487
dɔn	-488
▁sigilen	-489
▁ya	-490
▁laban	-491
▁mo	-492
fin	-493
yali	-494
▁fanga	-495
▁ŋ	-496
ci	-497
▁Muso	-498
▁Cɛ	-499
jan	-500
▁kɔfɛ	-501
bagaw	-502
▁bari	-503
kaw	-504
▁dumuni	-505
wo	-506
dan	-507
sira	-508
▁tila	-509
▁jaa	-510
kolon	-511
ɛgɛ	-512
lenw	-513
▁San	-514
gi	-515
son	-516
dama	-517
▁Man	-518
▁ala	-519
ɛlɛya	-520
▁wari	-521
kow	-522
umu	-523
sɛbɛn	-524
gon	-525
men	-526
▁Ki	-527
▁balima	-528
▁balo	-529
▁tɛmɛ	-530
rɛ	-531
▁koro	-532
▁Ku	-533
diya	-534
ona	-535
sɛbɛ	-536
folo	-537
sin	-538
▁faamu	-539
kɔrɔba	-540
ɛlɛn	-541
ru	-542
▁ro	-543
▁bara	-544
kelen	-545
▁,	-546
ris	-547
▁kulu	-548
que	-549
▁donna	-550
▁tɔn	-551
mo	-552
kɛlaw	-553
▁yere	-554
▁dusu	-555
▁ɲininka	-556
▁kosɔn	-557
mani	-558
▁denw	-559
▁siri	-560
▁mu	-561
▁siran	-562
▁Matigi	-563
▁diɲɛ	-564
fan	-565
▁tora	-566
▁sababu	-567
▁un	-568
ene	-569
▁dɔrɔn	-570
▁Maa	-571
wu	-572
tigiw	-573
▁jaabi	-574
▁kosɛbɛ	-575
▁bu	-576
▁fili	-577
do	-578
hun	-579
rista	-580
yan	-581
siri	-582
▁Krista	-583
ɲɛna	-584
▁tɛna	-585
tɔn	-586
▁Un	-587
▁dama	-588
▁bonya	-589
▁tugun	-590
fu	-591
▁deli	-592
▁gɛlɛya	-593
▁Ɛ	-594
gɛn	-595
▁Ta	-596
▁foro	-597
▁kɔnɔn	-598
▁dilan	-599
▁kɛlen	-600
▁bamanan	-601
▁jate	-602
ron	-603
▁katugu	-604
▁l	-605
▁dogo	-606
▁Ɔ	-607
▁daminɛ	-608
▁iko	-609
ɔli	-610
yiwa	-611
▁mɛ	-612
▁kari	-613
fara	-614
▁kiri	-615
▁jiri	-616
▁Ti	-617
▁So	-618
kalo	-619
▁barika	-620
sɔrɔ	-621
▁go	-622
▁nto	-623
bini	-624
▁naani	-625
kuma	-626
▁dɛmɛ	-627
olu	-628
ce	-629
▁Don	-630
▁fini	-631
je	-632
▁Min	-633
▁ɔ	-634
▁pe	-635
▁nan	-636
▁kura	-637
▁tɛmɛn	-638
00	-639
▁lase	-640
fo	-641
▁donso	-642
1)	-643
3)	-644
yara	-645
dɔ	-646
▁sabu	-647
6)	-648
8)	-649
firi	-650
▁kungo	-651
5)	-652
hi	-653
rɛn	-654
ramɔgɔ	-655
7)	-656
▁sun	-657
▁kanu	-658
ɲuman	-659
▁poli	-660
2)	-661
baa	-662
mini	-663
tion	-664
▁mɔ	-665
▁pere	-666
▁sugu	-667
▁danna	-668
9)	-669
sp	-670
yen	-671
suma	-672
4)	-673
YƐ	-674
▁masakɛ	-675
▁denmisɛn	-676
lɔsi	-677
▁denkɛ	-678
ɛɛ	-679
▁foyi	-680
▁dugukolo	-681
▁farikolo	-682
foni	-683
▁wali	-684
▁faama	-685
▁bilen	-686
gɔ	-687
iga	-688
▁ɲi	-689
▁5	-690
kɔnɔ	-691
▁nyo	-692
▁Bama	-693
▁nɛgɛ	-694
▁Dugu	-695
▁sariya	-696
0)	-697
ju	-698
▁[	-699
mun	-700
▁fen	-701
▁kaba	-702
mɔ	-703
▁Bi	-704
▁nafolo	-705
st	-706
kura	-707
▁Dan	-708
▁fisa	-709
▁sigida	-710
▁no	-711
▁laa	-712
▁wulila	-713
elen	-714
taa	-715
yaw	-716
▁r	-717
kuru	-718
▁yaa	-719
aamu	-720
zidan	-721
▁nafa	-722
▁musow	-723
taw	-724
▁kow	-725
baara	-726
▁dalen	-727
▁kɛnɛya	-728
▁falen	-729
▁)	-730
ɔri	-731
wula	-732
lt	-733
▁Olu	-734
▁filan	-735
▁li	-736
fɛnw	-737
▁yɛlɛma	-738
▁ɲa	-739
ɲini	-740
▁joli	-741
law	-742
▁Mo	-743
▁teri	-744
koro	-745
▁mogo	-746
gt	-747
ɛni	-748
▁19	-749
▁bɔn	-750
▁ɲɛmɔgɔ	-751
▁kolo	-752
▁juru	-753
▁Na	-754
▁Kun	-755
▁sɔ	-756
maya	-757
▁misi	-758
damaden	-759
▁les	-760
▁yoro	-761
▁jumɛn	-762
▁tɔw	-763
▁tilen	-764
ale	-765
kisɛ	-766
tiki	-767
▁jigi	-768
▁Bakari	-769
nan	-770
▁po	-771
▁kalo	-772
▁ɲama	-773
▁Ga	-774
uruku	-775
▁tugu	-776
eni	-777
▁sama	-778
▁duuru	-779
▁co	-780
▁saya	-781
!)	-782
fili	-783
ɔnin	-784
▁Ale	-785
▁numu	-786
uran	-787
▁jala	-788
▁nɔgɔ	-789
▁Sigi	-790
▁wolon	-791
madu	-792
▁Kan	-793
jɔ	-794
▁6	-795
▁Di	-796
ɲa	-797
▁Jɔn	-798
▁sɛnɛ	-799
sɔ	-800
▁dala	-801
▁mago	-802
is	-803
▁baa	-804
▁kali	-805
▁Jamana	-806
▁sani	-807
▁tagara	-808
bara	-809
liw	-810
yo	-811
ena	-812
▁et	-813
daw	-814
bana	-815
▁jɔyɔrɔ	-816
▁ɲɔ	-817
▁daga	-818
▁Unhun	-819
▁kabini	-820
usa	-821
▁sɔgɔ	-822
▁perezidan	-823
▁Anw	-824
▁ɲin	-825
▁kunnafoni	-826
dugu	-827
▁sago	-828
dala	-829
▁kɛmɛ	-830
▁mari	-831
▁Fan	-832
baliya	-833
▁bange	-834
buru	-835
▁bali	-836
▁feere	-837
té	-838
▁Su	-839
▁fɔra	-840
▁baro	-841
▁tulo	-842
»,	-843
maw	-844
▁np	-845
kana	-846
latan	-847
▁diyɛn	-848
▁qu	-849
raba	-850
▁bala	-851
ut	-852
jɔn	-853
▁Dɔ	-854
▁nyogon	-855
▁Hali	-856
▁banna	-857
ent	-858
tigiya	-859
▁miiri	-860
wari	-861
▁kɔlɔsi	-862
▁Hakili	-863
anw	-864
▁seli	-865
▁faso	-866
▁wɛrɛw	-867
▁fɛɛrɛ	-868
▁tasuma	-869
▁Ani	-870
▁Bu	-871
▁Jɛ	-872
▁	-873
a	-874
n	-875
i	-876
k	-877
e	-878
ɛ	-879
o	-880
l	-881
ɔ	-882
u	-883
b	-884
m	-885
y	-886
s	-887
r	-888
t	-889
d	-890
g	-891
,	-892
.	-893
f	-894
w	-895
'	-896
j	-897
A	-898
ɲ	-899
c	-900
N	-901
K	-902
M	-903
S	-904
h	-905
B	-906
’	-907
)	-908
:	-909
p	-910
O	-911
D	-912
!	-913
?	-914
1	-915
I	-916
F	-917
U	-918
2	-919
«	-920
»	-921
J	-922
-	-923
z	-924
T	-925
0	-926
3	-927
Y	-928
E	-929
;	-930
(	-931
4	-932
9	-933
5	-934
é	-935
8	-936
6	-937
L	-938
H	-939
7	-940
W	-941
"	-942
C	-943
P	-944
G	-945
Z	-946
Ɛ	-947
q	-948
v	-949
ε	-950
Ɲ	-951
&	-952
ŋ	-953
Ɔ	-954
>	-955
R	-956
x	-957
[	-958
]	-959
/	-960
è	-961
à	-962
<	-963
ê	-964
–	-965
X	-966
V	-967
î	-968
Ŋ	-969
+	-970
â	-971
­	-972
Q	-973
%	-974
=	-975
ʃ	-976
ô	-977
ç	-978
*	-979
ù	-980
û	-981
̀	-982
|	-983
”	-984
{	-985
°	-986
“	-987
}	-988
œ	-989
ì	-990
‘	-991
€	-992
@	-993
ò	-994
_	-995
ï	-996
ǩ	-997
`	-998
É	-999
#	-1000
̌	-1001
~	-1002
̧	-1003
—	-1004
§	-1005
Ç	-1006
ā	-1007
Č	-1008
̂	-1009
$	-1010
À	-1011
Ê	-1012
í	-1013
ī	-1014
ř	-1015
ǎ	-1016
ǒ	-1017
ǔ	-1018
ɾ	-1019
ʿ	-1020
ḥ	-1021
