<unk>	0
<pad>	0
▁k	-0
▁b	-1
an	-2
▁n	-3
▁y	-4
▁d	-5
▁[	-6
▁ka	-7
▁s	-8
▁m	-9
▁f	-10
la	-11
in	-12
▁t	-13
▁ye	-14
▁bɛ	-15
▁la	-16
ɔn	-17
?]	-18
ra	-19
▁[?]	-20
ɛn	-21
▁a	-22
ɔr	-23
aa	-24
cs	-25
▁kɛ	-26
un	-27
ɔrɔ	-28
▁na	-29
en	-30
▁A	-31
▁o	-32
ɔg	-33
▁N	-34
li	-35
um	-36
ɛr	-37
ana	-38
▁ko	-39
ɛrɛ	-40
▁j	-41
▁ɲ	-42
▁ma	-43
▁min	-44
▁se	-45
▁c	-46
ya	-47
ɔgɔ	-48
▁ni	-49
▁de	-50
▁w	-51
▁K	-52
▁i	-53
▁fɔ	-54
on	-55
▁an	-56
▁yɛrɛ	-57
am	-58
▁kɔn	-59
▁dɔ	-60
▁bi	-61
is	-62
▁O	-63
▁sɔrɔ	-64
lo	-65
len	-66
▁be	-67
aara	-68
▁tɛ	-69
ri	-70
ig	-71
go	-72
lu	-73
ba	-74
nu	-75
▁fɛn	-76
▁kan	-77
le	-78
▁An	-79
▁don	-80
ug	-81
▁nin	-82
ga	-83
▁taa	-84
▁ta	-85
▁baara	-86
olo	-87
▁ne	-88
▁I	-89
▁in	-90
▁u	-91
▁bɔ	-92
▁bɛɛ	-93
ogo	-94
▁M	-95
kɛ	-96
▁B	-97
▁mɔgɔ	-98
▁wa	-99
▁ba	-100
igi	-101
▁fɛ	-102
▁kun	-103
ma	-104
lan	-105
▁sa	-106
▁kɔnɔ	-107
▁di	-108
ur	-109
ugu	-110
lɔ	-111
▁Ka	-112
▁fana	-113
▁mun	-114
▁yɔrɔ	-115
so	-116
uma	-117
aman	-118
ɔgɔn	-119
▁yen	-120
gɛ	-121
▁D	-122
▁S	-123
lɛ	-124
▁fa	-125
▁da	-126
▁den	-127
▁fi	-128
▁kɔ	-129
elen	-130
▁si	-131
ti	-132
▁dɔw	-133
ɛb	-134
na	-135
▁san	-136
uru	-137
▁ɲɛ	-138
ini	-139
▁cogo	-140
▁h	-141
ura	-142
ɛnɛ	-143
▁bolo	-144
▁F	-145
▁kelen	-146
▁Ni	-147
ka	-148
▁U	-149
▁caman	-150
▁ɲɔgɔn	-151
▁ti	-152
▁e	-153
▁dɔn	-154
▁ha	-155
▁kɔni	-156
▁olu	-157
▁fo	-158
si	-159
▁to	-160
fɛ	-161
sa	-162
ɛbɛ	-163
▁cɛ	-164
▁bana	-165
ɔna	-166
mɛ	-167
sɛbɛ	-168
bu	-169
▁man	-170
ama	-171
▁bila	-172
▁fɛnɛ	-173
se	-174
▁Ne	-175
▁kɔnɔna	-176
▁ninnu	-177
ise	-178
▁fura	-179
ili	-180
uso	-181
▁kosɛbɛ	-182
no	-183
noise	-184
▁ja	-185
▁W	-186
▁kuma	-187
[?]	-188
isan	-189
▁dɛ	-190
inɛ	-191
▁sigi	-192
fa	-193
▁ji	-194
jɛ	-195
ni	-196
▁T	-197
▁ki	-198
▁saba	-199
▁sisan	-200
ko	-201
▁te	-202
▁minnu	-203
ro	-204
▁kalan	-205
▁so	-206
▁g	-207
▁fɔlɔ	-208
ɔrɔn	-209
ɛna	-210
▁p	-211
ali	-212
▁wɛrɛ	-213
▁ca	-214
▁nana	-215
da	-216
▁Ko	-217
▁nɔ	-218
iri	-219
▁yan	-220
re	-221
oli	-222
▁kɔrɔ	-223
▁J	-224
▁gɛ	-225
▁ban	-226
ɲɛ	-227
ke	-228
ɛgɛ	-229
▁E	-230
▁Olu	-231
▁lajɛ	-232
▁tun	-233
▁fara	-234
▁wari	-235
igɛ	-236
den	-237
▁Wa	-238
yi	-239
kolo	-240
▁dɔrɔn	-241
ee	-242
▁ale	-243
▁nun	-244
lɛya	-245
▁nɔgɔ	-246
▁fan	-247
▁du	-248
olu	-249
uni	-250
isɛn	-251
▁sɛnɛ	-252
▁fila	-253
▁kɛra	-254
▁muso	-255
amana	-256
aati	-257
mi	-258
▁jɔ	-259
▁dugu	-260
uman	-261
▁tan	-262
▁minɛ	-263
ase	-264
▁dun	-265
ɔw	-266
kan	-267
mɔgɔ	-268
▁dɔgɔ	-269
ɛlɛ	-270
▁gɛlɛya	-271
▁bɛn	-272
▁Ɔ	-273
kili	-274
▁mɔgɔw	-275
man	-276
▁munnu	-277
▁Mɔgɔ	-278
▁sira	-279
▁dam	-280
eere	-281
▁dɔɔn	-282
iya	-283
te	-284
▁Y	-285
▁waati	-286
aseke	-287
▁tigi	-288
nin	-289
▁mana	-290
▁nunnu	-291
▁tigɛ	-292
misɛn	-293
ta	-294
▁daminɛ	-295
▁bon	-296
gati	-297
▁taara	-298
yɔrɔ	-299
▁dan	-300
▁feere	-301
inin	-302
ulu	-303
▁ɲɛna	-304
▁ɲini	-305
▁P	-306
ele	-307
▁jamana	-308
▁Ba	-309
gan	-310
tɔrɔ	-311
▁hali	-312
bi	-313
kɛla	-314
▁bin	-315
▁nafa	-316
mu	-317
tɔ	-318
▁ten	-319
isi	-320
▁ga	-321
▁H	-322
▁kɔfɛ	-323
ani	-324
▁bɛna	-325
▁kɛnɛ	-326
▁kana	-327
▁Ale	-328
▁lab	-329
lon	-330
▁sɔn	-331
▁tɛmɛ	-332
▁wu	-333
▁C	-334
▁jate	-335
▁sababu	-336
▁aw	-337
▁mɛ	-338
▁Ani	-339
▁sen	-340
lɔlɔ	-341
kɔ	-342
▁wagati	-343
▁jɛ	-344
kun	-345
▁tɔ	-346
isa	-347
gin	-348
ki	-349
▁foro	-350
▁furakɛ	-351
▁ŋ	-352
nen	-353
▁sugu	-354
ale	-355
▁Ala	-356
▁hakɛ	-357
▁wo	-358
▁do	-359
baga	-360
▁ani	-361
yɛn	-362
▁faa	-363
▁sera	-364
▁yi	-365
▁cogoya	-366
▁anw	-367
▁hakili	-368
▁joli	-369
tigi	-370
▁Min	-371
ɛbɛn	-372
▁yɛlɛ	-373
▁tug	-374
▁Baara	-375
ji	-376
kɔrɔ	-377
ku	-378
umɛn	-379
▁fini	-380
▁sara	-381
▁Sa	-382
▁denmisɛn	-383
▁Dɔw	-384
isɛ	-385
fɛn	-386
▁fari	-387
▁kama	-388
umuni	-389
▁jumɛn	-390
▁ɲuman	-391
fɔ	-392
▁faamu	-393
lasa	-394
▁bɔra	-395
ina	-396
▁duuru	-397
▁ya	-398
▁mara	-399
igin	-400
▁mi	-401
risa	-402
▁ci	-403
▁Hali	-404
ɔnɔ	-405
▁Fɛn	-406
▁G	-407
▁sɛ	-408
▁dɔgɔtɔrɔ	-409
▁foyi	-410
▁kila	-411
▁kalo	-412
▁Den	-413
▁ɲa	-414
▁kala	-415
to	-416
▁dɛmɛ	-417
wu	-418
▁sɛbɛn	-419
▁sin	-420
su	-421
▁segin	-422
▁maa	-423
▁wuli	-424
▁Paseke	-425
▁Nin	-426
▁Bana	-427
ge	-428
▁Ɛ	-429
wa	-430
di	-431
ɛɛ	-432
▁cɛn	-433
▁	-434
a	-435
n	-436
i	-437
ɛ	-438
k	-439
ɔ	-440
e	-441
b	-442
l	-443
o	-444
u	-445
s	-446
m	-447
y	-448
r	-449
d	-450
'	-451
[	-452
]	-453
t	-454
f	-455
g	-456
w	-457
c	-458
?	-459
A	-460
j	-461
ɲ	-462
N	-463
K	-464
O	-465
I	-466
M	-467
B	-468
D	-469
S	-470
h	-471
U	-472
F	-473
p	-474
W	-475
T	-476
J	-477
E	-478
Ɔ	-479
Y	-480
P	-481
ŋ	-482
H	-483
C	-484
Ɛ	-485
z	-486
G	-487
L	-488
Ɲ	-489
-	-490
Ŋ	-491
R	-492
Z	-493
v	-494
q	-495
é	-496
V	-497
0	-498
ô	-499
4	-500
à	-501
Q	-502
x	-503
è	-504
ù	-505
.	-506
1	-507
8	-508
X	-509
