k
b
##an
n
y
d
[
ka
s
m
f
##la
##in
t
ye
bɛ
la
##ɔn
##?]
##ra
[?]
##ɛn
a
##ɔr
##aa
##cs
kɛ
##un
##ɔrɔ
na
##en
A
o
##ɔg
N
##li
##um
##ɛr
##ana
ko
##ɛrɛ
j
ɲ
ma
min
se
c
##ya
##ɔgɔ
ni
de
w
K
i
fɔ
##on
an
yɛrɛ
##am
kɔn
dɔ
bi
##is
O
sɔrɔ
##lo
##len
be
##aara
tɛ
##ri
##ig
##go
##lu
##ba
##nu
fɛn
kan
##le
An
don
##ug
nin
##ga
taa
ta
baara
##olo
ne
I
in
u
bɔ
bɛɛ
##ogo
M
##kɛ
B
mɔgɔ
wa
ba
##igi
fɛ
kun
##ma
##lan
sa
kɔnɔ
di
##ur
##ugu
##lɔ
Ka
fana
mun
yɔrɔ
##so
##uma
##aman
##ɔgɔn
yen
##gɛ
D
S
##lɛ
fa
da
den
fi
kɔ
##elen
si
##ti
dɔw
##ɛb
##na
san
##uru
ɲɛ
##ini
cogo
h
##ura
##ɛnɛ
bolo
F
kelen
Ni
##ka
U
caman
ɲɔgɔn
ti
e
dɔn
ha
kɔni
olu
fo
##si
to
##fɛ
##sa
##ɛbɛ
cɛ
bana
##ɔna
##mɛ
##sɛbɛ
##bu
man
##ama
bila
fɛnɛ
##se
Ne
kɔnɔna
ninnu
##ise
fura
##ili
##uso
kosɛbɛ
##no
##noise
ja
W
kuma
##[?]
##isan
dɛ
##inɛ
sigi
##fa
ji
##jɛ
##ni
T
ki
saba
sisan
##ko
te
minnu
##ro
kalan
so
g
fɔlɔ
##ɔrɔn
##ɛna
p
##ali
wɛrɛ
ca
nana
##da
Ko
nɔ
##iri
yan
##re
##oli
kɔrɔ
J
gɛ
ban
##ɲɛ
##ke
##ɛgɛ
E
Olu
lajɛ
tun
fara
wari
##igɛ
##den
Wa
##yi
##kolo
dɔrɔn
##ee
ale
nun
##lɛya
nɔgɔ
fan
du
##olu
##uni
##isɛn
sɛnɛ
fila
kɛra
muso
##amana
##aati
##mi
jɔ
dugu
##uman
tan
minɛ
##ase
dun
##ɔw
##kan
##mɔgɔ
dɔgɔ
##ɛlɛ
gɛlɛya
bɛn
Ɔ
##kili
mɔgɔw
##man
munnu
Mɔgɔ
sira
dam
##eere
dɔɔn
##iya
##te
Y
waati
##aseke
tigi
##nin
mana
nunnu
tigɛ
##misɛn
##ta
daminɛ
bon
##gati
taara
##yɔrɔ
dan
feere
##inin
##ulu
ɲɛna
ɲini
P
##ele
jamana
Ba
##gan
##tɔrɔ
hali
##bi
##kɛla
bin
nafa
##mu
##tɔ
ten
##isi
ga
H
kɔfɛ
##ani
bɛna
kɛnɛ
kana
Ale
lab
##lon
sɔn
tɛmɛ
wu
C
jate
sababu
aw
mɛ
Ani
sen
##lɔlɔ
##kɔ
wagati
jɛ
##kun
tɔ
##isa
##gin
##ki
foro
furakɛ
ŋ
##nen
sugu
##ale
Ala
hakɛ
wo
do
##baga
ani
##yɛn
faa
sera
yi
cogoya
anw
hakili
joli
##tigi
Min
##ɛbɛn
yɛlɛ
tug
Baara
##ji
##kɔrɔ
##ku
##umɛn
fini
sara
Sa
denmisɛn
Dɔw
##isɛ
##fɛn
fari
kama
##umuni
jumɛn
ɲuman
##fɔ
faamu
##lasa
bɔra
##ina
duuru
ya
mara
##igin
mi
##risa
ci
Hali
##ɔnɔ
Fɛn
G
sɛ
dɔgɔtɔrɔ
foyi
kila
kalo
Den
ɲa
kala
##to
dɛmɛ
##wu
sɛbɛn
sin
##su
segin
maa
wuli
Paseke
Nin
Bana
##ge
Ɛ
##wa
##di
##ɛɛ
cɛn
▁
##a
##n
##i
##ɛ
##k
##ɔ
##e
##b
##l
##o
##u
##s
##m
##y
##r
##d
##'
##[
##]
##t
##f
##g
##w
##c
##?
##A
##j
##ɲ
##N
##K
##O
##I
##M
##B
##D
##S
##h
##U
##F
##p
##W
##T
##J
##E
##Ɔ
##Y
##P
##ŋ
##H
##C
##Ɛ
##z
##G
##L
##Ɲ
##-
##Ŋ
##R
##Z
##v
##q
##é
##V
##0
##ô
##4
##à
##Q
##x
##è
##ù
##.
##1
##8
##X
