d
l
##es
##on
p
c
a
##en
##ou
s
##qu
t
##il
m
##an
##ai
qu
##er
##re
n
de
f
le
v
pa
##est
il
##ent
##it
la
e
##is
##le
b
##un
j
ce
que
les
##om
##ar
##eu
##our
##ont
##oi
##ous
##or
à
pas
est
un
r
##in
##ait
##me
ch
g
tu
en
##ais
##la
##ant
au
et
##te
##am
##as
je
##au
par
##ti
##onn
##and
##ri
##al
##ui
##ur
ne
##lle
##ch
qui
##ans
dit
##em
é
di
pr
tr
pour
av
des
##ons
##ce
si
ils
##ère
nous
##us
dans
##tre
h
##se
##ge
du
se
sont
com
##end
##ci
##out
##ab
ét
re
une
##ien
##si
on
##ois
son
##pp
lui
##ain
k
che
mais
##ec
##ra
##os
fait
##és
sa
##res
##et
##ll
ont
mar
##mes
y
##ille
cela
##ouv
mon
peu
##at
fem
##ir
##ers
elle
##ux
##ée
##uis
quand
avec
##li
vous
##de
gr
##ils
##que
te
##ça
ça
##ment
vi
##onne
tout
##ès
##fant
dé
ven
##pr
sur
##ati
leur
##eur
as
pl
##ad
##elle
##ême
dieu
##oir
ar
dis
##ot
##aire
ma
femme
##ort
##av
cet
ent
app
mari
##ol
##ag
ré
ou
##ens
##eau
##illa
donn
##ass
o
nom
ton
grand
villa
##ak
enfant
in
roi
pro
##che
jour
am
##ang
##ac
##ve
##té
##ff
quel
là
même
##ors
##eux
##oup
i
cette
##uit
##aient
village
toi
##age
hom
all
bien
##ie
##onc
##oit
moi
aus
##gn
chez
aussi
##ue
##ba
fr
comme
tous
##oy
##ill
an
pers
##di
faire
##ul
##jour
##tu
##ation
es
va
##près
sé
dev
père
plus
était
gri
##gou
griot
bon
ser
##ét
dem
suis
part
##uer
##ré
al
ac
##ier
me
après
##app
##ion
ces
ta
##ité
arri
parti
##ala
bam
##ter
for
##tes
ses
no
cou
fam
fils
gar
##ose
##aut
dire
gens
trouv
##ara
##el
con
sou
##ger
avait
##etit
alors
petit
main
trav
été
beau
personne
ai
##être
##rai
où
eu
guer
jus
##endre
mère
##mp
deux
##né
##lles
mal
tou
##ord
arriv
##jourd
demand
ici
chose
venu
famille
enfants
##bl
##ert
non
##ance
##cher
##aiss
##ne
trois
chef
##une
peut
##ép
##ché
mam
ni
##all
##asse
entre
jusqu
aux
##du
##ut
##lui
##oro
##coup
li
beaucoup
maison
monde
##erci
pay
som
vais
##ères
notre
cher
celui
donc
##oin
oui
sal
femmes
##ez
##tr
##ani
##bre
##ête
ah
aujourd
##ement
##ème
##co
##ér
vie
comm
hommes
##hui
conn
##orte
fais
fin
donné
##ig
pass
##ari
cont
ségou
parce
guerre
##emp
eux
vrai
forger
frère
##bas
rest
homme
##ants
##tres
ex
chev
##ble
##eurs
nos
at
ca
trava
##ma
##ten
dj
prop
met
pays
eh
##ern
acc
mes
seu
##iens
##illes
quelqu
##og
##iss
cas
▁
##e
##a
##s
##i
##n
##t
##u
##l
##r
##o
##d
##m
##c
##p
##é
##v
##'
##q
##f
##b
##g
##h
##j
##à
##è
##k
##-
##y
##x
##ê
##z
##ç
##ô
##î
##â
##ù
##w
##0
##ɔ
##û
##œ
##ɛ
##1
##2
##ï
##ɲ
##5
##4
##9
##3
##7
##8
##6
##ŋ
##ë
##ā
##ö
##ī
##ʿ
##ḥ
