<unk>	0
<pad>	0
▁k	-0
▁b	-1
an	-2
▁d	-3
▁n	-4
▁y	-5
▁m	-6
la	-7
▁ka	-8
▁t	-9
▁s	-10
▁f	-11
in	-12
▁bɛ	-13
▁a	-14
▁ye	-15
ɔn	-16
▁la	-17
ra	-18
en	-19
▁ko	-20
▁ma	-21
li	-22
un	-23
▁kɛ	-24
__	-25
ma	-26
on	-27
▁o	-28
▁an	-29
▁j	-30
ɔr	-31
aa	-32
▁de	-33
▁min	-34
ɔg	-35
ɛn	-36
▁w	-37
▁__	-38
ɔrɔ	-39
▁c	-40
▁na	-41
▁ɲ	-42
▁ni	-43
▁i	-44
ana	-45
▁fɔ	-46
ya	-47
▁tɛ	-48
ba	-49
▁A	-50
ɔgɔ	-51
ɛr	-52
len	-53
▁se	-54
▁don	-55
ri	-56
ɛrɛ	-57
le	-58
▁si	-59
▁kɔn	-60
▁ba	-61
so	-62
▁sa	-63
▁bi	-64
lo	-65
▁wa	-66
▁taa	-67
▁ne	-68
si	-69
ti	-70
▁di	-71
▁dɔ	-72
▁kan	-73
▁u	-74
▁yɛrɛ	-75
▁da	-76
ur	-77
ka	-78
▁ta	-79
▁e	-80
gi	-81
ug	-82
uso	-83
▁p	-84
go	-85
uma	-86
am	-87
▁cɛ	-88
▁sɔrɔ	-89
ga	-90
▁N	-91
▁bɛɛ	-92
▁K	-93
▁bɔ	-94
▁nin	-95
sa	-96
▁fɛ	-97
▁fa	-98
▁mɔgɔ	-99
olo	-100
▁in	-101
▁h	-102
▁ti	-103
▁kɔnɔ	-104
ugu	-105
uru	-106
▁den	-107
kɛ	-108
▁dɔn	-109
na	-110
ɔgɔn	-111
▁fi	-112
um	-113
▁muso	-114
lu	-115
ogo	-116
lɛ	-117
▁ke	-118
▁ala	-119
▁fɛn	-120
▁fo	-121
gɛ	-122
▁ɲɛ	-123
yi	-124
▁kelen	-125
▁kuma	-126
▁to	-127
nu	-128
▁M	-129
▁kɔ	-130
▁ha	-131
da	-132
▁san	-133
ini	-134
▁ɲɔgɔn	-135
▁dɛ	-136
▁yen	-137
▁fana	-138
▁tun	-139
jɛ	-140
▁bolo	-141
mɛ	-142
▁kun	-143
mi	-144
▁O	-145
▁cogo	-146
re	-147
qu	-148
▁aw	-149
▁jam	-150
▁so	-151
▁sigi	-152
bi	-153
▁baa	-154
▁D	-155
den	-156
▁ale	-157
▁ji	-158
ta	-159
▁bila	-160
ki	-161
▁pa	-162
▁An	-163
▁lajɛ	-164
▁yɔrɔ	-165
te	-166
▁S	-167
▁B	-168
ɲɛ	-169
▁jamana	-170
sɛ	-171
▁olu	-172
ro	-173
▁dɔw	-174
▁ja	-175
▁qu	-176
▁I	-177
lɔ	-178
fɛ	-179
▁baara	-180
ko	-181
se	-182
▁saba	-183
ele	-184
di	-185
hun	-186
▁minnu	-187
▁nana	-188
▁U	-189
bu	-190
▁du	-191
fa	-192
▁kɛra	-193
▁yan	-194
▁ani	-195
lan	-196
▁kɔrɔ	-197
▁maa	-198
san	-199
▁un	-200
ɛna	-201
▁Ka	-202
▁mɛ	-203
kan	-204
inɛ	-205
▁que	-206
lima	-207
▁man	-208
wa	-209
uman	-210
▁fila	-211
▁furu	-212
▁mun	-213
▁ku	-214
▁tan	-215
tigi	-216
mɔgɔ	-217
▁<	-218
kɔrɔ	-219
▁waa	-220
▁kɔni	-221
▁ban	-222
▁ki	-223
bɛ	-224
man	-225
aman	-226
▁kɔnɔn	-227
▁lajɛlen	-228
▁unhun	-229
▁su	-230
▁F	-231
▁jɔ	-232
▁anw	-233
▁dugu	-234
ce	-235
ɔrɔn	-236
▁E	-237
mu	-238
gin	-239
▁W	-240
muso	-241
▁fara	-242
▁Ko	-243
ina	-244
fi	-245
▁fɔlɔ	-246
▁caman	-247
▁taara	-248
▁minɛ	-249
▁g	-250
oli	-251
▁be	-252
▁tɔgɔ	-253
▁bɛna	-254
lon	-255
▁waati	-256
▁sira	-257
▁ɲini	-258
ku	-259
sɛbɛ	-260
▁mi	-261
HE	-262
▁sisan	-263
▁sɔn	-264
▁te	-265
▁ya	-266
▁Ala	-267
▁Wa	-268
▁kɛlɛ	-269
▁kɔnɔna	-270
▁fan	-271
▁ɲuman	-272
baga	-273
▁hali	-274
▁bɛn	-275
▁ninnu	-276
rce	-277
▁wɛrɛ	-278
▁nka	-279
tɔ	-280
▁sɛ	-281
▁kana	-282
▁bɔra	-283
▁T	-284
▁faa	-285
kili	-286
▁mɔgɔw	-287
▁tɔ	-288
▁Ɔ	-289
▁nɔ	-290
▁dɔrɔn	-291
▁wala	-292
SI	-293
▁mali	-294
inin	-295
is	-296
ni	-297
▁dan	-298
▁wu	-299
▁kama	-300
▁jɛ	-301
▁sen	-302
▁dun	-303
▁bon	-304
du	-305
ke	-306
▁Ni	-307
▁ɲɛna	-308
uni	-309
ani	-310
▁tu	-311
to	-312
▁ci	-313
▁kɛn	-314
aw	-315
▁lam	-316
▁Ne	-317
IN	-318
▁gɛ	-319
▁mana	-320
ji	-321
▁mara	-322
▁masa	-323
▁tiɲɛ	-324
sɛn	-325
▁kosɛbɛ	-326
▁kɛnɛ	-327
▁ca	-328
▁ayi	-329
▁J	-330
ran	-331
ɛlɛ	-332
▁hakili	-333
▁Ma	-334
▁sara	-335
▁kari	-336
ura	-337
▁jɔn	-338
▁ɔ	-339
yɔrɔ	-340
ere	-341
kɔrɔba	-342
denw	-343
▁lab	-344
▁tuma	-345
▁balima	-346
▁tile	-347
▁jum	-348
▁mɛn	-349
CO	-350
LE	-351
COM	-352
PR	-353
BLE	-354
HEN	-355
HENSI	-356
HENSIBLE	-357
COMPR	-358
COMPRÉ	-359
INCOMPRÉ	-360
INCOMPRÉHENSIBLE	-361
▁foli	-362
misɛn	-363
▁foyi	-364
▁wuli	-365
kɔ	-366
ale	-367
▁jumɛn	-368
▁parce	-369
▁filɛ	-370
fɔ	-371
▁sun	-372
▁ga	-373
▁nɛ	-374
▁sera	-375
▁Un	-376
▁Ɛ	-377
nin	-378
bɔ	-379
▁ɛ	-380
▁kara	-381
▁Ba	-382
▁C	-383
▁wo	-384
iri	-385
▁wari	-386
▁tɛmɛ	-387
minɛ	-388
▁dɔgɔ	-389
▁sababu	-390
▁tigɛ	-391
▁segin	-392
dama	-393
jugu	-394
▁jugu	-395
▁tila	-396
▁diya	-397
eli	-398
▁wele	-399
▁ɲinin	-400
▁jira	-401
▁H	-402
▁kala	-403
▁ten	-404
sɔn	-405
▁waga	-406
tu	-407
▁gɛlɛ	-408
▁P	-409
wu	-410
kun	-411
bali	-412
▁yɛlɛ	-413
▁diɲɛ	-414
ɛnɛ	-415
▁ara	-416
▁	-417
a	-418
n	-419
i	-420
ɛ	-421
k	-422
e	-423
ɔ	-424
o	-425
l	-426
b	-427
m	-428
u	-429
s	-430
d	-431
y	-432
r	-433
t	-434
'	-435
f	-436
g	-437
w	-438
_	-439
j	-440
c	-441
ɲ	-442
A	-443
h	-444
p	-445
N	-446
K	-447
M	-448
I	-449
E	-450
O	-451
S	-452
B	-453
U	-454
q	-455
D	-456
z	-457
C	-458
H	-459
T	-460
<	-461
>	-462
P	-463
é	-464
F	-465
W	-466
R	-467
L	-468
v	-469
Ɔ	-470
-	-471
J	-472
É	-473
Ɛ	-474
ŋ	-475
Y	-476
V	-477
x	-478
Q	-479
à	-480
Ɲ	-481
è	-482
G	-483
ç	-484
’	-485
ê	-486
Z	-487
ô	-488
Ŋ	-489
î	-490
â	-491
ï	-492
Ç	-493
ـ	-494
û	-495
œ	-496
ù	-497
ë	-498
X	-499
À	-500
ɓ	-501
ԑ	-502
,	-503
Ê	-504
Ë	-505
ė	-506
ķ	-507
ɾ	-508
ʿ	-509
