k
b
##an
d
n
y
m
##la
ka
t
s
f
##in
bɛ
a
ye
##ɔn
la
##ra
##en
ko
ma
##li
##un
kɛ
##__
##ma
##on
o
an
j
##ɔr
##aa
de
min
##ɔg
##ɛn
w
__
##ɔrɔ
c
na
ɲ
ni
i
##ana
fɔ
##ya
tɛ
##ba
A
##ɔgɔ
##ɛr
##len
se
don
##ri
##ɛrɛ
##le
si
kɔn
ba
##so
sa
bi
##lo
wa
taa
ne
##si
##ti
di
dɔ
kan
u
yɛrɛ
da
##ur
##ka
ta
e
##gi
##ug
##uso
p
##go
##uma
##am
cɛ
sɔrɔ
##ga
N
bɛɛ
K
bɔ
nin
##sa
fɛ
fa
mɔgɔ
##olo
in
h
ti
kɔnɔ
##ugu
##uru
den
##kɛ
dɔn
##na
##ɔgɔn
fi
##um
muso
##lu
##ogo
##lɛ
ke
ala
fɛn
fo
##gɛ
ɲɛ
##yi
kelen
kuma
to
##nu
M
kɔ
ha
##da
san
##ini
ɲɔgɔn
dɛ
yen
fana
tun
##jɛ
bolo
##mɛ
kun
##mi
O
cogo
##re
##qu
aw
jam
so
sigi
##bi
baa
D
##den
ale
ji
##ta
bila
##ki
pa
An
lajɛ
yɔrɔ
##te
S
B
##ɲɛ
jamana
##sɛ
olu
##ro
dɔw
ja
qu
I
##lɔ
##fɛ
baara
##ko
##se
saba
##ele
##di
##hun
minnu
nana
U
##bu
du
##fa
kɛra
yan
ani
##lan
kɔrɔ
maa
##san
un
##ɛna
Ka
mɛ
##kan
##inɛ
que
##lima
man
##wa
##uman
fila
furu
mun
ku
tan
##tigi
##mɔgɔ
<
##kɔrɔ
waa
kɔni
ban
ki
##bɛ
##man
##aman
kɔnɔn
lajɛlen
unhun
su
F
jɔ
anw
dugu
##ce
##ɔrɔn
E
##mu
##gin
W
##muso
fara
Ko
##ina
##fi
fɔlɔ
caman
taara
minɛ
g
##oli
be
tɔgɔ
bɛna
##lon
waati
sira
ɲini
##ku
##sɛbɛ
mi
##HE
sisan
sɔn
te
ya
Ala
Wa
kɛlɛ
kɔnɔna
fan
ɲuman
##baga
hali
bɛn
ninnu
##rce
wɛrɛ
nka
##tɔ
sɛ
kana
bɔra
T
faa
##kili
mɔgɔw
tɔ
Ɔ
nɔ
dɔrɔn
wala
##SI
mali
##inin
##is
##ni
dan
wu
kama
jɛ
sen
dun
bon
##du
##ke
Ni
ɲɛna
##uni
##ani
tu
##to
ci
kɛn
##aw
lam
Ne
##IN
gɛ
mana
##ji
mara
masa
tiɲɛ
##sɛn
kosɛbɛ
kɛnɛ
ca
ayi
J
##ran
##ɛlɛ
hakili
Ma
sara
kari
##ura
jɔn
ɔ
##yɔrɔ
##ere
##kɔrɔba
##denw
lab
tuma
balima
tile
jum
mɛn
##CO
##LE
##COM
##PR
##BLE
##HEN
##HENSI
##HENSIBLE
##COMPR
##COMPRÉ
##INCOMPRÉ
##INCOMPRÉHENSIBLE
foli
##misɛn
foyi
wuli
##kɔ
##ale
jumɛn
parce
filɛ
##fɔ
sun
ga
nɛ
sera
Un
Ɛ
##nin
##bɔ
ɛ
kara
Ba
C
wo
##iri
wari
tɛmɛ
##minɛ
dɔgɔ
sababu
tigɛ
segin
##dama
##jugu
jugu
tila
diya
##eli
wele
ɲinin
jira
H
kala
ten
##sɔn
waga
##tu
gɛlɛ
P
##wu
##kun
##bali
yɛlɛ
diɲɛ
##ɛnɛ
ara
▁
##a
##n
##i
##ɛ
##k
##e
##ɔ
##o
##l
##b
##m
##u
##s
##d
##y
##r
##t
##'
##f
##g
##w
##_
##j
##c
##ɲ
##A
##h
##p
##N
##K
##M
##I
##E
##O
##S
##B
##U
##q
##D
##z
##C
##H
##T
##<
##>
##P
##é
##F
##W
##R
##L
##v
##Ɔ
##-
##J
##É
##Ɛ
##ŋ
##Y
##V
##x
##Q
##à
##Ɲ
##è
##G
##ç
##’
##ê
##Z
##ô
##Ŋ
##î
##â
##ï
##Ç
##ـ
##û
##œ
##ù
##ë
##X
##À
##ɓ
##ԑ
##,
##Ê
##Ë
##ė
##ķ
##ɾ
##ʿ
